#include "sensor_network_data.h"

ai_handle ai_sensor_network_data_weights_get(void)
{

  AI_ALIGNED(4)
  static const ai_u8 s_sensor_network_weights[ 864 ] = {
    0xf8, 0x3f, 0x2c, 0x41, 0x8a, 0x7e, 0xee, 0x40, 0xf6, 0x0b,
    0xe1, 0x40, 0x74, 0xb1, 0x03, 0x41, 0x36, 0xf4, 0x14, 0x41,
    0x2f, 0xff, 0x4e, 0xc0, 0x0c, 0x56, 0xad, 0xc0, 0x81, 0x2d,
    0x16, 0x41, 0x08, 0x15, 0x96, 0x3e, 0x5e, 0x9f, 0xd7, 0xbe,
    0xf3, 0x1e, 0xf5, 0xbe, 0x23, 0x09, 0x0d, 0xbc, 0x09, 0x3e,
    0x2c, 0x41, 0x47, 0x74, 0x0d, 0xbf, 0x8a, 0xf7, 0xa2, 0xbf,
    0xd3, 0xe7, 0xa8, 0xc0, 0x9f, 0x7d, 0x2c, 0x41, 0x0d, 0x99,
    0x06, 0x40, 0xa7, 0xfd, 0x39, 0xbf, 0xfb, 0xfa, 0x13, 0x41,
    0x72, 0x90, 0x1e, 0xc1, 0xa6, 0x88, 0xc4, 0x40, 0x48, 0x26,
    0xe9, 0x40, 0xb6, 0x6a, 0x04, 0xc1, 0x08, 0x7b, 0x0f, 0xc1,
    0x6b, 0x72, 0xd8, 0xc0, 0x16, 0xa9, 0xc4, 0xc0, 0x43, 0xd3,
    0x0f, 0x41, 0x15, 0x5f, 0xd1, 0xc0, 0x99, 0x50, 0xba, 0x40,
    0x9b, 0x29, 0xbc, 0x40, 0xc7, 0x9a, 0xfc, 0x40, 0x03, 0x07,
    0xdf, 0x40, 0xb9, 0x03, 0xd9, 0xc0, 0x62, 0xc4, 0xec, 0xc0,
    0xe5, 0xe7, 0x1a, 0x40, 0x02, 0xc6, 0x4d, 0xbe, 0x71, 0x91,
    0xe2, 0xbe, 0xb8, 0xac, 0x04, 0x3e, 0x30, 0x8a, 0x21, 0xbe,
    0xb0, 0x21, 0x16, 0xc1, 0x69, 0x59, 0x4a, 0x40, 0x00, 0xe5,
    0x79, 0x40, 0xde, 0x9e, 0xda, 0x40, 0x6d, 0xf2, 0x1f, 0x41,
    0xda, 0x3d, 0xe1, 0x40, 0x81, 0xa6, 0xb8, 0x40, 0x62, 0x18,
    0xde, 0x40, 0xcd, 0x56, 0x9a, 0xbe, 0x5e, 0x5d, 0x74, 0x3e,
    0x20, 0x5f, 0x23, 0x3e, 0x8e, 0x83, 0x81, 0xbd, 0xae, 0x60,
    0x12, 0x41, 0x05, 0x12, 0x70, 0xc0, 0x7e, 0x55, 0x87, 0xc0,
    0x9d, 0x39, 0xe9, 0xc0, 0x99, 0x54, 0x24, 0x41, 0x5b, 0xf3,
    0xbe, 0x40, 0xc2, 0x12, 0xbb, 0x40, 0x0a, 0x6f, 0xf5, 0xc0,
    0xfd, 0xc2, 0x88, 0x3e, 0xcd, 0x5c, 0x95, 0x3d, 0x2f, 0xd2,
    0x00, 0xbe, 0x1b, 0x5b, 0x8f, 0x3d, 0xbe, 0x60, 0x56, 0xbf,
    0x43, 0x42, 0x26, 0xbd, 0xb0, 0x20, 0xab, 0xbc, 0x54, 0x36,
    0x60, 0x3f, 0x33, 0x30, 0x52, 0xbe, 0x1c, 0x96, 0x31, 0x40,
    0x9f, 0x0f, 0x94, 0x3f, 0xd3, 0x13, 0xb7, 0x3e, 0xdb, 0xf6,
    0x0c, 0x40, 0x00, 0x00, 0x00, 0x00, 0xbf, 0xda, 0x80, 0x3f,
    0x64, 0x05, 0xd9, 0xbe, 0x86, 0x41, 0x21, 0xbd, 0xdc, 0x6c,
    0x82, 0x3f, 0xcf, 0xf3, 0x6c, 0xbd, 0x30, 0x6d, 0xf0, 0xbc,
    0xfb, 0x4c, 0xb1, 0xc0, 0x3f, 0xaf, 0xf6, 0xc0, 0xde, 0x69,
    0x86, 0x3e, 0xbf, 0x8d, 0x45, 0xc0, 0x9a, 0x20, 0x06, 0xc1,
    0xe3, 0x53, 0x38, 0x40, 0x1e, 0x80, 0x80, 0x40, 0x40, 0x7a,
    0xce, 0xc0, 0x02, 0xaf, 0xa1, 0x3f, 0x80, 0x8e, 0x90, 0xbc,
    0x8e, 0x42, 0xc1, 0xbf, 0xa4, 0x33, 0x13, 0xc1, 0x78, 0x49,
    0xd5, 0xbe, 0xb2, 0xd6, 0x0d, 0xbd, 0x6d, 0xe8, 0xf5, 0xc0,
    0xe8, 0x3d, 0x57, 0xbe, 0x4f, 0xc5, 0x00, 0xc1, 0x10, 0x9f,
    0x9b, 0xbf, 0x12, 0x0e, 0xc0, 0xbe, 0x25, 0x43, 0x9b, 0x40,
    0x49, 0x59, 0x10, 0xbf, 0x7b, 0x03, 0x36, 0xc0, 0x5a, 0xe5,
    0x79, 0xc0, 0x71, 0xfd, 0xfa, 0xc0, 0x8e, 0x8e, 0x76, 0x40,
    0xb0, 0xd6, 0xdb, 0xbe, 0x3d, 0x37, 0xe1, 0xc0, 0x66, 0xc9,
    0x8d, 0xc0, 0x7b, 0x8c, 0xc6, 0x3e, 0x62, 0x83, 0xb2, 0x40,
    0xea, 0x87, 0x50, 0x40, 0xa9, 0xf1, 0xed, 0x3e, 0x42, 0xf8,
    0xdc, 0xc0, 0x44, 0x21, 0x9c, 0xc0, 0xbe, 0xbb, 0xc2, 0x3e,
    0xa1, 0x5e, 0x35, 0xc0, 0xed, 0x0d, 0x0e, 0xc1, 0x40, 0x18,
    0xca, 0x40, 0x88, 0xa7, 0xde, 0xc0, 0xe5, 0xf6, 0x90, 0x3f,
    0x6f, 0x95, 0xd6, 0xc0, 0xa8, 0x01, 0x00, 0x3e, 0xf4, 0xb2,
    0x01, 0x40, 0x48, 0x4a, 0x7f, 0xc0, 0xa5, 0xc6, 0x9e, 0xbe,
    0x44, 0xdc, 0x84, 0xc0, 0x6c, 0xb5, 0x0f, 0x3f, 0x57, 0xb5,
    0xda, 0x3e, 0x92, 0x63, 0x0c, 0xc1, 0x9e, 0xdf, 0xc3, 0x3f,
    0x08, 0xd5, 0xa5, 0x3e, 0x33, 0xdf, 0xe8, 0xc0, 0x85, 0x12,
    0x05, 0xc0, 0x58, 0x3a, 0x5e, 0xc0, 0xe7, 0x3d, 0xcf, 0x40,
    0xfb, 0x79, 0x9d, 0x3f, 0x0d, 0x7b, 0xeb, 0x3f, 0xc0, 0x2f,
    0xbc, 0x3c, 0xde, 0xa8, 0x51, 0x40, 0xe0, 0x2d, 0xbf, 0xc0,
    0x34, 0xdc, 0x6f, 0x3e, 0xe8, 0x27, 0xf0, 0xc0, 0x89, 0x77,
    0xe7, 0xc0, 0x47, 0xe2, 0xbf, 0x3e, 0xbe, 0x3a, 0xaf, 0x3f,
    0x42, 0x48, 0x8b, 0xc0, 0x12, 0x54, 0x07, 0xbe, 0xc1, 0x5f,
    0x03, 0xc1, 0xf1, 0xe0, 0x98, 0xbf, 0xe4, 0xf3, 0x8b, 0x3f,
    0x90, 0x82, 0x42, 0x40, 0x86, 0x5f, 0x33, 0x40, 0x77, 0xaf,
    0xbe, 0xc0, 0xf4, 0xd3, 0x80, 0xbe, 0x0a, 0x95, 0x74, 0x40,
    0x8b, 0xb7, 0x55, 0x3c, 0x1b, 0xeb, 0xcd, 0xbe, 0x2a, 0xa4,
    0x1c, 0xc1, 0xda, 0xd6, 0xde, 0xc0, 0x33, 0x48, 0x9e, 0xbe,
    0x6b, 0xb3, 0x25, 0x40, 0x26, 0x91, 0xf8, 0xc0, 0xc0, 0x1b,
    0xb5, 0x3e, 0xa5, 0x90, 0x6b, 0x40, 0xd8, 0xb6, 0x4c, 0xbf,
    0x91, 0x1f, 0x73, 0x3f, 0x80, 0x41, 0x1d, 0xc1, 0xbf, 0xa6,
    0x7a, 0xc0, 0xbd, 0x02, 0x4d, 0xc0, 0x20, 0x14, 0xfd, 0x3e,
    0x07, 0x00, 0xaf, 0xc0, 0x29, 0x42, 0xdc, 0x3f, 0xd4, 0x65,
    0xd9, 0x3e, 0x26, 0x9e, 0x84, 0x40, 0x74, 0x0a, 0x95, 0x40,
    0x79, 0x85, 0x00, 0xbd, 0xad, 0x23, 0x35, 0x40, 0x49, 0x95,
    0x9d, 0x40, 0x46, 0x03, 0xf1, 0xbe, 0xd7, 0x31, 0x5b, 0x3f,
    0xa3, 0xbc, 0xb2, 0x40, 0x4a, 0xe6, 0x11, 0xc1, 0x1e, 0xb7,
    0x23, 0x40, 0xdc, 0xfa, 0x6a, 0xc0, 0x7a, 0x3b, 0x48, 0x40,
    0xf8, 0xe3, 0xba, 0x3e, 0x08, 0x78, 0x8d, 0xc0, 0x1e, 0x89,
    0xcd, 0x3f, 0xd3, 0x0e, 0x98, 0x3e, 0x67, 0xad, 0x57, 0x3f,
    0xfa, 0x39, 0xa4, 0xc0, 0xfe, 0x22, 0x84, 0xbe, 0x16, 0xf4,
    0xb5, 0x40, 0x21, 0x38, 0x98, 0x40, 0xcc, 0xd3, 0x75, 0xbe,
    0x17, 0x77, 0x8d, 0x3f, 0x2e, 0x12, 0xc2, 0x40, 0x0f, 0x17,
    0xc0, 0xc0, 0x6e, 0x50, 0xa3, 0xc0, 0x63, 0x6d, 0x41, 0x3f,
    0xf6, 0x9a, 0x0b, 0xc0, 0xdc, 0x5a, 0xb9, 0xbe, 0x1d, 0xdb,
    0x04, 0xc0, 0x3c, 0x5c, 0xa4, 0x40, 0xee, 0x38, 0x3c,
    0x3e, 0xf8, 0xc6, 0xc6, 0xc0, 0x6c, 0xcf, 0xee, 0x3f,
    0x67, 0x87, 0xde, 0x3e, 0xb0, 0x76, 0x32, 0xbe, 0x6a,
    0xc8, 0xe0, 0x3d, 0xf3, 0x4e, 0x77, 0xbe, 0x30, 0x13,
    0xd6, 0xbe, 0x91, 0xf6, 0x79, 0xbf, 0xdc, 0xd2, 0x5a,
    0xbf, 0xe1, 0xd6, 0xb5, 0xbf, 0x4f, 0xad, 0xb5, 0xbf
  };

  return AI_HANDLE_PTR(s_sensor_network_weights);
}

